110010100000000
110100100000000
110101100000000
100010000000011
100010000000010
110011100000000
100001111111110
100001111111110
110010000000000
110001100000000
100010011111111
110000100000000
110001000000000
100010000000001
110100000000000
110101000000000
100001111101001
100001111101001
110011000000000
100010000101000
100001100011010
100001100011010
100010000100011
110110000000000
100000100000000
100000100000000
100000100000000
100000100000000
100000100000000
100000100000000
100000100000000
100000100000000
100000100000101
100000100000101
100000100000101
100000100000101
100000100000101
100000100000101
100000100000101
100000100000101
100001011111001
100001011111001
100001011111001
100001011111001
100001100010111
100001100010111
100010011011011
100010011011110
100000100000110
100000100000110
100000100000110
100000100000110
100000100000110
100000100000110
100000100000110
100000100000110
100001011111000
100001011111000
100001011111000
100001011111000
100001000001100
100001000001100
100001000001100
100001000001100
100000111111100
100000111111100
100000111111100
100000111111100
100000111111100
100000111111100
100000111111100
100000111111100
100000100000111
100000100000111
100000100000111
100000100000111
100000100000111
100000100000111
100000100000111
100000100000111
100000100001000
100000100001000
100000100001000
100000100001000
100000100001000
100000100001000
100000100001000
100000100001000
100000100001001
100000100001001
100000100001001
100000100001001
100000100001001
100000100001001
100000100001001
100000100001001
100001101010111
100001101010111
100001100111101
100001100111101
100001011000100
100001011000100
100001011000100
100001011000100
100000111001011
100000111001011
100000111001011
100000111001011
100000111001011
100000111001011
100000111001011
100000111001011
100001000001110
100001000001110
100001000001110
100001000001110
100001011110101
100001011110101
100001011110101
100001011110101
100001011110110
100001011110110
100001011110110
100001011110110
100001111100100
100001111100100
100010011010100
100010011010111
100001111101111
100001111101111
100001111101101
100001111101101
100001000001011
100001000001011
100001000001011
100001000001011
100001111101011
100001111101011
100001100001111
100001100001111
100001111110000
100001111110000
100001100010011
100001100010011
100001000010001
100001000010001
100001000010001
100001000010001
100001100100000
100001100100000
100001111100111
100001111100111
100000111111011
100000111111011
100000111111011
100000111111011
100000111111011
100000111111011
100000111111011
100000111111011
100001011111010
100001011111010
100001011111010
100001011111010
110110100000000
100010011100001
100001100010101
100001100010101
100000111111101
100000111111101
100000111111101
100000111111101
100000111111101
100000111111101
100000111111101
100000111111101
100010011010000
110111000000000
100001100011101
100001100011101
100001011110010
100001011110010
100001011110010
100001011110010
100001011110011
100001011110011
100001011110011
100001011110011
100001011110111
100001011110111
100001011110111
100001011110111
100000100110000
100000100110000
100000100110000
100000100110000
100000100110000
100000100110000
100000100110000
100000100110000
100001011000111
100001011000111
100001011000111
100001011000111
100001111000001
100001111000001
100001110111001
100001110111001
100000100110100
100000100110100
100000100110100
100000100110100
100000100110100
100000100110100
100000100110100
100000100110100
100000100101100
100000100101100
100000100101100
100000100101100
100000100101100
100000100101100
100000100101100
100000100101100
100001010101101
100001010101101
100001010101101
100001010101101
100001001000001
100001001000001
100001001000001
100001001000001
100001000111010
100001000111010
100001000111010
100001000111010
100001001001001
100001001001001
100001001001001
100001001001001
