110001100000000
110100100000000
110000100000000
110010100000000
110110100000000
110111000000000
110011100000000
110010000000000
100010000000110
100010000000000
110011000000000
110101000000000
110001000000000
110101100000000
110100000000000
110110000000000
100001000100100
100001000100100
100001000100100
100001000100100
100001000000001
100001000000001
100001000000001
100001000000001
100000111110111
100000111110111
100000111110111
100000111110111
100000111110111
100000111110111
100000111110111
100000111110111
100000100000011
100000100000011
100000100000011
100000100000011
100000100000011
100000100000011
100000100000011
100000100000011
100001000000010
100001000000010
100001000000010
100001000000010
100001011110001
100001011110001
100001011110001
100001011110001
100000100001111
100000100001111
100000100001111
100000100001111
100000100001111
100000100001111
100000100001111
100000100001111
100000100000100
100000100000100
100000100000100
100000100000100
100000100000100
100000100000100
100000100000100
100000100000100
100001100010000
100001100010000
100001111111011
100001111111011
100010000000101
100010000101101
100001111110110
100001111110110
100001000010101
100001000010101
100001000010101
100001000010101
100001111101000
100001111101000
100001111110010
100001111110010
100000100011011
100000100011011
100000100011011
100000100011011
100000100011011
100000100011011
100000100011011
100000100011011
100001000000111
100001000000111
100001000000111
100001000000111
100001000100111
100001000100111
100001000100111
100001000100111
100000111111101
100000111111101
100000111111101
100000111111101
100000111111101
100000111111101
100000111111101
100000111111101
100000100001000
100000100001000
100000100001000
100000100001000
100000100001000
100000100001000
100000100001000
100000100001000
100000100001001
100000100001001
100000100001001
100000100001001
100000100001001
100000100001001
100000100001001
100000100001001
100001000100001
100001000100001
100001000100001
100001000100001
100001000011100
100001000011100
100001000011100
100001000011100
100001000101010
100001000101010
100001000101010
100001000101010
100001000001010
100001000001010
100001000001010
100001000001010
100001011101011
100001011101011
100001011101011
100001011101011
100001011111001
100001011111001
100001011111001
100001011111001
100000111111000
100000111111000
100000111111000
100000111111000
100000111111000
100000111111000
100000111111000
100000111111000
100001100010110
100001100010110
100001100001011
100001100001011
100001011111111
100001011111111
100001011111111
100001011111111
100000100001100
100000100001100
100000100001100
100000100001100
100000100001100
100000100001100
100000100001100
100000100001100
100001000010100
100001000010100
100001000010100
100001000010100
100001111110000
100001111110000
100001100001101
100001100001101
100000100001110
100000100001110
100000100001110
100000100001110
100000100001110
100000100001110
100000100001110
100000100001110
100000111111010
100000111111010
100000111111010
100000111111010
100000111111010
100000111111010
100000111111010
100000111111010
100001000011000
100001000011000
100001000011000
100001000011000
100001011111110
100001011111110
100001011111110
100001011111110
100001000010010
100001000010010
100001000010010
100001000010010
100001000011010
100001000011010
100001000011010
100001000011010
100000111111100
100000111111100
100000111111100
100000111111100
100000111111100
100000111111100
100000111111100
100000111111100
100000100011110
100000100011110
100000100011110
100000100011110
100000100011110
100000100011110
100000100011110
100000100011110
100000111110100
100000111110100
100000111110100
100000111110100
100000111110100
100000111110100
100000111110100
100000111110100
100000111101110
100000111101110
100000111101110
100000111101110
100000111101110
100000111101110
100000111101110
100000111101110
